0001000011110001000100000001111000000001000000000000000011110001
0001001000000000111100001111111100010001000011110010000100011110
1111111011100001111100010000001000000001111100100001111100011111
1111111000001111001000101111000100010001111100000010000100011111
0000000000001111111100011111111000000000000000010001111000010000
1111000011101110000111011110000011100000000111111111111100010000
1111111100000001000100010000001000000010111011110010000100000001
1111111111100010110011001110111011100001111111010000111011110001
0000111100100001000100010001001011111111000100010011000100100000
1111000100010011000011001110111111101100111011101111000111111110
0001000100011111000011110000111100010000111111100101010100110001
0000111000010011110110111101110011011100000011011111000111111111
1111000100001111111100100001000100000010111100000011001100110011
0000001001000100000100010000111011111101110000001111111000011101
0010000011110001111000000010001000011111111100010010010000110000
0001001100110010111011101111111111001111000011011111000000001110
0000000000010001001011110010001000000010111100010111010100110100
0100010101110111000100010010000111100000000011110010111011101101
1111000000010000000000010010001000100001001000010111011001000011
0111011001110111000100100100010111000000111111100001000100001101
0000000000000000001100010001001101010100001000000110010100100110
0111011101110111010000010001001111011111000000000000000111101101
0011001011111111001000110011010000100100000100010100000100100011
0101011001110111001000110010010000000001001000010000001011101110
0010000100101111001100100001001000000011000100100011000111110000
0010010101110110000100100001001000010000000101000001000111110001
0000000000101110001000010011000011001111000100011111101110101100
0000010001010101010001000011001000001110001100000001111100010000
0010000111101111000000010000001110101110110111100000101110011010
0000000101000011000100010000000000000000000100101111000100011101
0001000111110001111111001110001010011101111011110001101110011001
0001000100100101111111101111111010111100110011110001111100000000
1110000100011111110111001101111110011101101110110001111010011001
1111000100100011110111110000111111111011110100001111111111110000
0010111100011111110011010000111110111011101111100001111011001101
1101000000010001110111011111111111101111110111110000000011111110
0000000100000000111111011111001011101100110011100011000000001110
0000111100010010000111101110111100000001111000000010001000000000
0000000000011111111111110001000011110000111111100010001011110000
0000111000100010111000000000111000001111111111111111111100010001
0010000111110000000011100001001000011111111111000001000100001111
1111111100100000111011110000110000000011000000010000001000000000
0001000000001110111000011111000011111111000100010010001111110000
1101000011100001111111111111110100110010000000100001000000000001
0010000111110000000100001111001000010000000100110000001000100000
1101111100010010000000010000000000110100000000010001000100000001
1111000111100001001100100000111100100100010000000001000100000001
0000111011010001000100000001000100000011000000000000111100010001
0000111000010000001001000011111100000001001000111111111111111111
1110110111101101000111110001000100100011001000011111000000000010
0010000100100000010000110001000000010011001000010000111011110001
0000000100100001001011110010001000010000000000010001000100001111
1111000111100000010000101111001000100001001001001111111011110010
0000000000110000000111110001111111110000111111110001111100000010
1110111100010000001011110010000100010010001000111111000000100000
0011001100010010001000011111001000100010000100001111111100010001
0000000000101111000000000000111000010001111100110010000100101111
0011001101000011000000010001001100101110000100010001000111100000
1110000000100001001000000010000000110010000100100100010101010001
0101010001000101000001000100010000001111001000011111000100010010
1110111011100000000000010010001000100011000100100010001100110010
0101010101000100001000100011001100101111000011110010000011111110
0010111111100001000111111110000011111111111100000000000100010000
0011001011110000000000000001001111100000111000011111111100001110
1111000000000000111111110000111011110001000000010000111100001110
0010111100101110000000010010000111101111000000000000000100000010
0010111011110001000011100001000111110000000011100010001000001110
1111111100001111000000000010000000010010000000101110111000000010
0001000100101111000000101111111000010000000011100001000000100010
0010001000100000000011100001001000100000000011110000111111101111
0001001000100001000011110000111100110010000111110001000000111111
0001111100010011111100010000110111111111111100000000111011100000
1111000011111111111111111111001000000010000111100101001001000001
0010010000110011000100100001001111101111001000100001000100101110
0001000100010000000000010000000100010000111011110110001100100010
0110011001110110001100110010010100000001111100010001000100001101
1110000111110010000011111110111111101110110111110101010000001111
0011011000110101001001000011010011010001000100110001000111101110
0000001011111110111111111101000111101110110111010001000000001111
0101010100110101001100110100001011111111001101001111000111011101
0000000000000000111100001110000011101110110111100100000100000000
0010010000110000001100110011001000010000001000011110111111111110
0000000000010000110111111111111100101110111011010000111100101111
0011001000100010010000100100000000001111000100101111111000001101
1111111111111111111100001111111100010010111111110010001000101111
0011001001000011001000110001001100000000000100110010000111011101
0001000000000010000111111111000000100000111100010000000011110010
0001000000110010001000100000111000010010001000101111000111001110
0001000100011110111111111101110111100001001000010001111111010000
1111111100100011001000100001111000110101010001011111000111100011
1110000100000001000111110000110111111111111111110000111011001110
1011110111100011010000101111110101010101010000110000111111110010
1110000111110010111111011101111010111111000011100001111011001011
1101111100010001001000011111110001000101001101001111000000000011
0001111100000000111111011111111110111110111111010100001000001101
1100110100100011000111101101101101000101001000110001000000000010
0000000100000000111011011111111111001100000011010111001100101111
1100111000110100110011001100101101000010000011101111000100010001
1110111011110010001000001110111100010001000000000100010100110010
1010111100110100110011001100101100100000111111101111001000100100
0001111100000000001000101111000100010011001000000101011001000100
1010111000110100111011001010101100110010111111011111001000110011
0000111000000000001111110011000001100101010100010101010101110110
1110110100010100111011101011111000110000111100000000001100110001
1111111100000000000100000011000101100110010000010100010101110111
0000111100000001111011101111110001000010000100101111111100010011
0000111011110000000000110001111001110111010100100100011001110111
0000111000010010001100010001001000100101001100111111000000100100
0000111111100000001000110001111101100111001101000100010001010111
0011000100010000001000010011001000100101010001000001111100100001
0001111011110010010000010000111101110111011001010001001101100111
0011001100010011010000010010001100110010001001010010111100000011
0000000000101111010001010010000001110100011001100011001001010011
0011001000110001000101010010010000110100001100100001111100010000
0001111000000000001100110000000101000010011001000010001001000101
0010001100010100001000100110001100000011001100000001111000100010
1111000100000001000111110001111100100100010001000010001000100101
0101001101000010000001000100011000000000001000101111111000001111
1110000000001110000011110000111001000001001000000110010101000010
0100000101000011000111110010000100011110000100010000000111101111
1111000011101111111011001110111011001011110010110000111011101100
1110111100000001000011101111111011100000111111100000111011110010
1111111100001110000000000000111110011001110111011100101110101011
1101110011101110111111110001111111110000000100001111000100001110
0010001011101111000011110010001000001101111000001101110111111110
0001000011111110000011110010111111100010000011111111000011100000
1110000111110000001011111111000011111111111100000010000000001111
0000001011110000111000100001111111111110111111101110111011100001
0010001000011111111100101110000000010001000100010001111111111110
0010001000001111000100101110111100101111001011100000000000010001
0001000000011110111100010010111111101110111000001111111100001110
1111111100000001000100010001111111110000000011111110000000000001
1110000011110001111000010000001000000001000000001110111111101110
1110111011101110111111111111111111100001110111111111000100010000
0010000000101110111100000001000100000010000011110000001000100001
1110111000001111111111011111110100001111110011000000000111111111
0010111100010000001000011111111100000001111100000011010000100000
1110000000100010111011111111000011011111110011011111111011110001
0000000000100010000000100010001000100000001100010101001100100000
0001001100100100110100001101111111111100000011011111111011100000
1111000000100001000100111111000000100010000000000101010000110011
0001010000110101111111110000000111011110111111111111111111101101
1111000100010000000000010011000000001111000100000110001000110000
0011001100110110000000010011001010111101111111111110000111101110
0000000100010000001100001111000000100001000011110111010100110000
0111011001110110000000100001001110101100000000000010111111101100
0000000011110001001000010010000000110001111100110011010000100011
0101011101110110000100100010010010111110111111110001000011001011
0001111011100010001100100010001100000011001000010011000100000000
0100011100110110111000110010010010101110111011100000111011001011
0010000100010000000100000000001100000001111000001111111100001110
0101010001000001001100010011010110111111111011100000111111111011
0000000100000010111011110001111111101110000111011011101111001101
0100010100110010010000100100001010111101111100010000000011011100
1111000000000010110011010001000010111110110111101010100110011001
0100010101100000000101000101001111111110001000010010000111111110
0000111000010010110011011110000110101011110010111111100110011001
0011010101100010001101010011010111011101111100001110111100001111
1111000000001111101011101101000010011011110011000001110110011001
0110011101100111111100100001010011101100111011110001000111111101
1111000011110001101110111100111110111100110011100100001011001001
0101010101110111110000000001001011001100101011110000111100010000
0000111000000001111011111111000111001101110111100111010011111101
0100011001010111110010110000000011011011101011100000001000001111
0000000000011111000000011111001111001101111111110111011000111110
0001001101100111110111101100000111011101110111011111000100000000
0011001011101110000000010001010000011111111100000110011000110011
1111001101000111111010111100000011100000111111111111001000010010
0000000000000010000000011111001100011111000100010110011000100011
1111000100110110111011111101111111110001111000000000111101000011
0011000000101111000000010001000100000001111111110011001100110001
1100110100110011000111111110110100100010000000001111001001000100
0001000000001111111100100010001011010000111000100011000011100001
1100111000010010001111101111110000100001001000010000000000100010
1111111000000010000100100010001111101110001111111100111000001111
1101110111101111001100100000000000010010000101001111000100000001
0010111100010001001100110001001100000011000101001101110111101111
1101111111101100000000110000000000010000001100100010111100000001
0000111100011111001100010000000000110011001100111100110000000000
1110110111011100001001000011001100100000000100110001000100000010
0000111111100001000100010011001000010001001001001100000000000001
1111000111111101010000100001001100100010000100011111001011100010
1110000111110000001000110000111111110011001000011101111100010010
0000111100000000001100100001000000010010001100100001000100001111
0000111011110000111100000000111111111111000100101111111011101110
0000111111011110000100000001001100000001000100001111000011110010
0001111111100000111100001111111100010001000100001111000100000010
0001000100110010000100110100010100010010000100100000111000010000
1110111100101111000000000000111000010000111100010011001100010010
0010001000100010001000000001000111110000111100101111000011100000
0001000100101110000111110000000000101111000000010010000111110000
1110001000100010000111110010000100000001000011111111000100001111
0001111111100001000000010001000011111110000100000001000111100001
0000111111110001000000010001111100011110111000100010111111101111
1111000100010000000011110001000100000000000100010000000111111111
0000111000001111111111111110000011110001001011110000001000011111
1111000111100000000100010000000011110001000000000010001100000001
0011001000110001000000100010001000010010000011110000001011111111
0000000011111110000111110001111100110010001011111110000000001111
0010000111110001001100010011000000100000000100110001001000101111
0000001000011111000100010000111100001110000111101111111111101110
0001000111111101001000010100000100000010001001000010000011110000
1110000111110001110111110001000000011111000111110001111000011110
0001000000001110010000010001001000110010001100110000000000000010
1111111111100010110111011101000000001111110011100001111111010000
0010001100100001000100100100010000110001010000100000111100000000
0000111111110000111111001111111011011110110111100000110111111111
0011001000010010000011110011000000011111000100010001000011110001
1110111000001111110011001101111111011100111010110001000111101101
0001001000010001111011010000001000010000111000011110111100101111
0000111011111111110110111010111111011101111111001111001000001110
1111110111111101110011111111000011111111110011000010000011100000
1110111000010000110010111010110000001110000011001110111100000001
1100101111001011111011001101111011111110111011011111111000000000
1100000000000001110011111100101101000001000100001100000001010110
1011100110011001111011011110110111011111110111000000000000001110
1111110111100000000111111111110101000011001000001011111100110111
1100100110011001111011111100110100001110111011100000111011111101
1101110111101110001100000000111001010101010000101100111100100111
1100110111001011000000010000000100110011000100100001111111100000
1110111111111111000100110000111001010101011000110000001000110111
1111000011011101001100110011000101010010001100101111001000010000
0000000111110001010000110010000001100100010101000000010101110101
0010000000010000001100110011001100100010001100010000111100010000
0000000011111110011000110010001001100101010101000100010101100110
0010001000010011001100000000001100010011001111110000111100010011
0000000111101111011000110000000101100101010101000100011101110110
0010010000110101111100000010001011110010111011100000000111110010
1110000100101111010100100000110101100101011001010101010101110110
0011001001010011111111101110000011110000110111110010111111101111
1100111100011111010000100000110101110110011001100101010101110111
0100001100100101111100000000001000011111111011110010000111110010
1100000100100000000111111111110001110111010000110101010001100111
0010001000100101000111101110000000000000000011111111111100010000
1110000011110001111111101100101101100100001100100100001001000111
0001010001000100001000001111000000000001111000010001111100010010
1110111011111111111011001011110101000000000111110000000100100010
0000001000010010000100100010001000100010000000001111000011110000
0000111000101111101111011011111100011110110011010010000100010010
0001000000101111111100010000001100010000000100111111000011100011
1100000000001110101111001100110111011110110111100010000011110000
0000001000011111000001000010001000100011000100000000111100000001
1110111100000000111010111101111011101110111011010000000100010000
1111000100001111001100010001000000100100001100100001000000000010
1110000000000001111011101111111011111110110110111110111111001100
1110111111010000001101000000111100110011010100100000000000001111
1111000000000001110011011100111011001110110010111111110111101110
1110111111001100001100100011001100100011010001001110000000100001
1110000100001111111011101101110111101100110110111011111011011011
1110111111011110001000100011001100010000001000011111111100010010
0000111011100001111011111110000111011100110011111100101111101011
1100101111001100000000010010110100011111000100100001000111111111
1110111100010001111100010001000011100000111111101101111111100000
1111110011111110000111110001000011100010111100000001000100010010
1111111100011110000100001111000000000001111000011110111000000000
0001110100010000000100010001000011101111111100001111000000000000
0010111011110001001000000010000000000001111100000001000100001111
0001000111111110001000011111000000010001000011110000000111100010
0010000000001111000111110000111111100001001000100001000111110001
1110111111111111000100011111111100000001000011110010111000000000
0001000011111111111111100001000100110000111100100011001001000100
0010000100010011001100100001010000010000000100100000000000001110
0010111111100010001000000000111100100001000100010011010001000010
0011010101000100001001010010011011111111001000101111111100000001
1111111000011111111100000001000101100010010000110010010101010011
0001000100010011000000100001111111110000111000010000111111110000
0010111111111110000000010001111100100100000100110010001101000011
1100111011100000111111101100111011011111110111010000000100011101
1111000100001110001000110001000000100011010001000000000100010001
1111111011111110110111101101110111011010110011001111000011011110
0010111011111111010000010010001000110001000100100001111100010001
1110111100001111111010111100111110111001101011001110111011111011
0000000100000001010000100100000100010010001000110010000100100010
0001010001000101111011101111000010011010110111101111000011011010
0011000000010001001001000100001000010001010101000101001100101111
0010011001000110111011001100000110011001101111010001000011001010
0010111111110000001001000011001100000000001101000100001100011111
0101011101110101111011101111111110101001110010110000111111011001
0000000100001111010101000100001111101111000000010001111011101111
0101011101110101111000010011001010101011111011101111000010101010
0010000000001111000100000100000111000000000100010001110110101100
0011011001010010010000100010010111110001000100010001000110111101
0000000000000001001011110000001011001101110111111110101010101001
0100011001100100010100110010010111100000010000101111000100001111
0010111100011110111000010001010011001111000000001111101110011011
0110011001010010010000100101001000010011001001010000111100000010
0000000011110000111000000001001110101100111111011111110111001011
0101010100110010000100110010001100110011000100110010000100010011
0001001000010001110111010001000111011100111111110000110010101101
0101011001100011001000010100010000100010001100110001000000010001
0010001011110000111011111101000011011110110010110000110011011111
0100011001010100001000010100001000100010001000100000000100010000
0001111111110000110011001111000111011101110111100100000111011110
0001010001100100001100100001001000100010001100101111000100010000
0000000000010000101111001111000100010000111110110011001100100011
0001001100110100001001010000001000100000000000100001000100011111
0010111111110010110110101101000000111110000010110101010101010011
0001000000010010010000100100001100001111000100010010000100100000
0011000100000001101111001111001000011111111010110101010000100011
0001000100010011001100100100010000000001111100010000111100011110
0001001000010010111011011111000000010000111111100100001101010100
0010010000100100000000110010010100001110000011110001000100001111
0001000000010010111111100000111100101101110111100010001100110011
0100010001010110000100010011000111111110110111110010111100010000
0010111111100000111111100000001000011101110111000100010000101111
0010001100110110110111110001111100001101110111110000000111110000
0010000000011111001000010010000111100000111011010011000100011110
1110111100010011111100001110111100001111111111100000000100000010
1111111100010010001000110010000111101111111011111110000011111111
1111110100011110111011111100110111111101111111011111111011101111
0000001011110001000100110011001000001111000000101110110011101101
1100110011001101110111011110111011111111111011010000111100010001
0000000011111111010000110010001000110011001100110001000100001111
1111001000100000000100000000111100000001001000011111000000000010
0010000011110010001000010010111101000101010101000100011001100011
0011001101000100000100010011001011110001001011110010000000000000
0001111000010010000100010000000101000010000000000101010100100011
0101010000100100000000010001001011110010001000100000111000001111
0001001000011111000011100001001011101111000100100000000000100000
0000001000011111000100100010001000011111001000001110111100100001
1110111100000000111000100010111100100001000111111111111100011110
0000001000010010001000001111000011100000000100001111111100101110
0000000000101110000111101111111000000000000011110000111100000001
1111000011110001001000101111000100011110000011101111000100000010
1111111100011111000000010001000100100010001000100010001000010000
0011000100110100000111110000001000000010000100011111111100001111
0010000011101110000100010000111101010000001100010101011101100110
0011001101000100000101000101001100100000000100011111001011110001
0000111100101111001100101110000001100100001100000011011001000101
0001000100010011111100010001111111101110000111100000111011111111
0000000111111111001100111111001001000101010100100001000100010011
0000111100010000111000001101111111101111101111100001000011101111
1111111000010001001100100011001100100010010001000010001100010001
0001000100100000111011000000111011001010101111011111000111101100
0001001000100010001100100001000000100010001000010000000100100001
0000001101000000111011011110111010011011110011001111000100001011
0001000000100001010100110010010000110011000000110101000100010010
0101011100110110111111111111001010011010111011010001000011101010
0000000100001111001100110100010000100000111100110100000100011111
0110011101100110110100010000001110101100110011100000000011001001
0001111100010000000101000011000100001110001011110011000111110000
0100011101100111111000010010010110011101101111100001111011011010
0010000000011111000100010100001011001100110011100000111111001101
0110011101100010001000010001011010111101111111100000000111101001
1111111100100001110011100001001010011100110111001111100110101010
0010001001010011001100100101001011001111000000001111000011111101
0000111100011110110000000001000110111100110010111011100110011001
0010000000000000000000010101001000010010000000111111000100000001
0010000000001111110111101101000110111110110011011011100111011101
0001000111110000001100110101001100110010111100010000000111110001
1111111111101111110111011111111100011101111111011101110111100000
0000111100101110111100110010010000100010000000001111000100010001
0000000111110001000011100010111111110011001011101100111011001111
0011000000100000001100110100000100000001000001000010000000100010
0010000100000001111100011111000100010100000100010001110000000000
0001111100010000010100110101010000110000001001000001000100000011
0000000111110010001000100010001000010001001100011111110111100001
0001111100000000010100100100001100110011001100111111000100100010
0000001000100001001100000011010011111111001000101110110111011111
0100000111110000001000110101010100010011001101010000001000000001
0011000100010000001000010010010011110000000000001110111111111110
0011001000010001010001010010010100110100001000010010001001000011
0001000000000010000000110100001100000001000100010001000111101111
0100010101010011001000100101011000010000010000110001111100110011
0100000111110000000100110001001000101111111000010101001000100010
0101010100100100001000110101001100000000001000000001000100000010
0010000000010000000000000011010100100000000000010100000100100000
0100010001000101001100000010001100010010000100001111111000000000
0010000000100000000000010010001111110010000100010010001100000010
0000010000010010001011110010001000101110110100010000111100100000
0001111100001111000100100010010011110010001100100000000011111111
0000000100000000111111111111111100101110111111101111111100000010
0010001000100000001000100011001100110010001000011101111111100010
1110110111001110111000001101111011110001111111101111001011100010
0011111011110000001100100001001000010001001001011011110100001110
1011101110111011000011011110111100000000000000010010000100000000
0010000000000001010001000010001000110001010000111110000100010000
1110110000001110110100001111000000100001111100010001111111100001
0001000111100001000000000000111101100100010000100110011101100111
0100010000100100001000010010000100000000000100000000000100010001
0000000100000000000111100001001000100011001000000100001000100001
0011000100110100111100100010010000000000001000011111000011100001
1111001000000010111000010001111100010001000011110000001011101111
0001000011110001111111111111001011111110111100010010000111100010
0001111100100001000100010001111011100001000100011111000111100000
1111000000001111001000010010111000001110000100010000111100000010
0000111111111111111011110001111000000001000011111111001000001110
1110111100010000001000001111000111110001000100010001111100100001
0000111011101111000000000001111100011111000111100001000111101111
1110111111101110111000001110111100000000000011100010111000101110
1111000000010010001011100010000111110000000011111111000011101110
1101001011101111000100001111111000001110000100000001001011100000
1111000100010001000111110000000100100001000100000011001000100001
0000000100110011111000010001000000000001000100001111000100100000
0010111111110000000100001111000100110010111100000001010000000001
0100001000010010000000110000001100100000000100000001000100000010
1110000100000000001111110000000000010011000000000011010001010011
0011001100100011001000010001000100100000000000001111000000100010
0010111100000000000100000010000000110100000100100100001001010010
0000111100110010001100010001001101000010001100010000000001000101
0010111000010000010001000001001101010101001101000000000001000011
0001000000011110001000010010111101010011000100101111000100110101
0010111100101111001101000011000000100011010001010010001000110001
1111001000000000010101000011000101010100001000111111001001100110
1111111111110000001000010011000100010001010001010001111100010010
0010000100110010001101000001000101110100010001001111001001010111
0000001000010000001100100001000000000001010000100010001100101110
0001010101110101000011110001000101000100000100110000001001100110
0011000100000000001101000010010000011111000100110110011000000000
0011011001110111000111111111000000010001000100000000001101000011
0010001000010010000000000010000100000001111000100111011100110001
0100011001110111110111110000000111011101101011110010000001000010
0001000111100001000000100011000011110000111111010111011101101111
0011011001110111101111001111000110101001101011010000000111110000
0000000100000001111011011111001000001101110111100111011101100001
0001001101010111110011111110111011001011110011011110111100001111
1111000000010001101110111110000011101110101011000111011001001111
0010001001110101111111101101110111011001101011010010111000001011
1111001000101111101011011101111111011011100110100101010100101101
0001000100110110111011110000111011111111000011110001111100011100
0000111100100000110111001101111111001011101011000100000111111110
1111001000000100001000010000000011110000000000000000111011100000
0011001000100000110011101111001111001010101111000010000011001101
0000111000000010000000100000111111011111001000100000000011111101
0011111100011110111111111111000110111010110011101110110111111100
0001111011101110000100010001001011111111001000100001111100000000
0011000111110000000100100001001111101101111000110000000011101110
0010111111110000001000100010001111110011000000101111000100001111
0100000000010010010100100100000100000011001000100000111011011101
0011111111111101000100100011010000010000000000011111111000001101
0010000100011111010000010010000100010100010001100000111111110001
0010000100010001001100100011000111010001001000000001111100011110
0011000111110010001101000001000100100001001101000010000000100001
0100010000101111010000010010010011111110001000011111001011101101
0000001000000000000100110010000100110100001001000100000000110010
0101010001010010001000000001001111100000000011110001000100001111
0000111111100000000100110001000000010011000000110110001000010100
0110010001000111111100000000010011111110111111100000111100100000
0000000000001110000100110011000100000010001100000110010101000001
0101010101010110111000100011010011110000111011100010111100000000
0001001000011110001000010010001001000100001100010111010101100011
0010001101000111111011110010001000010000000011100000000000010000
0010111100001110000000010001000100101111001000000010010000100100
0000000000100101111111110000000000011110111100011110111100000000
1111111000000000000000000000000011110010000011100001111100010001
0000001000100001111111110000001011111110000011110000111000011110
0001000100001111000111111111111011110010000000000010001000101111
0010000011110010000111111111001000011111111000010000000100001110
0000000100010000000100011111111100011111000100010000000111110000
0001111000010000000000100001111100011111000011111111111000010001
0001000000010000000111110000000011100010000011101110000111100001
1110111000100010111100011111000100001111000000001110111100010001
1110000100010000000100001111000000010000000011111111001011110000
1111000100001111001000010000001000011111001011100000111100000001
0010001000010001111100000010111000011111001011101110000111101111
0001001000100000111111111110111100001110111100100010111100001110
0001001011111111001000011110000011111110111100010000111100011110
0000111000010010001000000000001000100000111111101110111011111111
0001000011110001111100011110000100001110000011111111111111100001
0001001011111111111011111110000100001110111000010000000000010000
0001111100000000111100010001000000000000111111110001001000100000
1111000111110000000100010001111000100001111100000001111100010001
0001000111111111000011110000000100101111000000010010000000010001
0000000100000000000000000000000000010010111111110001111100000000
0000000100011110111111111110000100011111111000010001000111100001
1110111000000000111111111111111000100010111000100000000100000000
1111001011101110000011110001000100010000001000000001111111111111
0000000100011110000111100001111111110001111000000000000111100010
0001111100011110111100001111000000000001000000001111000000011110
0000000100010010111100010001111000010001111000100000111100000001
1111111100001111111100011110001000101111000111111110000000100001
0000000100000000111011110001111000001111001000001110111100011111
0001001011110001001011110001000011100000111000000001111011100000
0001001000011110000011111111000000100001000100010000001000001110
0010111100001111000011111111111000100000001011110001111011111111
0001111011100001111000000001000000010000111111110000111000000001
1110000100010001111000001111111000000000000000000000111011110000
0000111011110000000000010000111011110000001000010010111100001110
0001000100000000111011110001000011110000000000010001000111111111
1110111100101110111011101111000000011110000011100000001000101111
1110001000100010000011110000000100101111001000011111111100010000
1111111000010001000000011111111100101110000011111110000011101110
0000000000000000111000010001001011111111000000100000111000100000
0000000111110010000100011110000000010001001000010000000111100001
0001111111110010000000010010111100011111111111111110111000101111
1111111000010010000100001111001011110000000000000010001000000001
0000000000010000000000101111000111110001000111101111001011101111
0000111111111111111000001111111011110000000000000001001000011111
0000111111111111000000000000111100011110111111110000111111111111
0000111000001111111100011110001000010001111000011111000000000010
0001001000000010000000000010111011111111000111110000000100010000
0001000000100001000011101111000111101111111111110001000011111111
0000111100010001000000010001001011110000111100100001000100011110
0000111111100000000011110000000111110001111100010001111000011111
0000111100100000111111100000111100000000001000000000000011101110
0000000011110001000111110000111111101111111100011111111100010001
0001000111101110000011110001001000001111000000101111111100011111
1111000100000000000000000000111000001111111100011111001000101111
0010111000000000111100101111001000000001000111101110111100011111
0000111111111111000100001110000111100001000100000001000100010000
1111111100010001000000011111111000101111000000010001000111101111
0001000011100010111111111111000111101111000111111111000011110010
1111000000001111111111100001111000000010111111110000000011100000
1111000111101110000100010001111100100001111111110000000100011110
1111111100000000001011111110111100010000000000001110111111110000
1111111100010001000111110000000000101110111111101111000100011110
0000111100000000111011101111000000011111000100100000111011111111
1111001000010001000100010001000011100001000100000001000000010001
1111000000100000001000001110111000011111000000001111000100011111
1111000100001110000111110001001000010001001011101111000100001111
0000000011101111000100101110111100011110111111111110111011111110
0001001000011111000000010000000011110000111011111110000000011110
0010111000101111000011111110000100010001000000011110000000000001
0000111111111110111100000000000100011110000100100001000111110000
0000000100000010000111101111001011110001000100001110111111111110
0001111100010000000000000010000100000001111100000000111111111110
0000001000010000000100000010000011010001000011100000110111101101
1101110111111110000011101111111000001110111000000000000111110000
1111000011100001111000010001000011111110111000001101110111101111
1100110010111100111111111111111111100000111100000001000100100010
0000000100010001000100001111000000011111000011111110111100010001
1110111011111110000011011101110011110000110111000010000011101110
0000111100010001001100000000111100000010111100010001000100010000
0000000111110001000000011101111100001111111011110000111000001111
1111000000101111001100110001000000101111001000100011000100100000
0011000101000100111111110000000100001101111111110000111000001111
1111000011111111000101000001111101000100001000010010000100100010
0011001000010100000000000001000011111111000100010000001011111111
0001001011101110000100010011000100011111111111110101001000000001
0010001000110011001011110010001111011111001000000000000011101111
1111000011110000000000000010001011100001000000001110111111010000
0010111111111110111100010010000011010001000000100000110100001100
0001110111100010000100010010000011100000111000011110110111101100
1111111010111011001100110001111111011111000000000000111011101101
1110111100011110001000010000000111011100111000001001110111001100
1111111011011100001100110001001011010000000100100000000011001110
0001111100001111001011110000000100000000000111111110111011100001
0010000100011100001001000101000111110001001000110001000111011111
1110111011100000000011111111000011110010001011110011000100010010
0100001001010100001101000101010111110000001100000000111011101111
0000000111111110001000000000111000100010001000010111010101000011
0110010101110111001100100011001100001110000100000001000111111110
0000111011100000000111110001000100010010001100100111011101100011
0101011101110111111100010010010111111110111111010001111011111111
0001001011110000111100101110001000100001000100000111011101100101
0110010101110111110011010010001011011101111111100001000100000000
0010111100011111000111110010000000000001001000000111011101100010
0010011001100111110011010001000111011011110111000010000111110000
0001000100011110000111100001111000000001111111100111011101000001
0010010101000110111000000000001111101100111100000010000011101110
0010001000101111111100010001111111100000111111100011001100010010
0001000000010011110111101101000011101101000011110000000111011110
1111000111110001111011010000000011101111111011101101110111111101
0000000011101110111011101101111011011110111100001110111011001111
0001000111110001000011111111111111001100111011011011101110011001
1111000011111011111100011110000011001101111000010010000011111101
0010001100001110111011100010000010011100111111011010100110011001
0001111111101011111100000001111111111111111100000000000100011100
0001000100001110000100010000000110011010111100011100101010011001
0001111111101011000100011111000011101100110100010010000000001111
0100001000001110000100000010001010101100111100011100110110101011
0001000011101111001000010010001011011111111100000010000111111111
0000111111111110001100010011001111001111111000100000111011001101
0000001000001110000100110010001011011101110111111111111000001110
0001000100000001001000100000000100000001000100000000000100000000
0011111100000010001000010100010000011111111111100001000000011110
0001000000100000000100110000000000101111001000010001001000110010
0000001100110011010000100010001000100000000111110001111100000010
0000111011110001001000011111000000100010001111110000000000100100
0011111111111111001101010011000111110000000000010001000000001110
1110000111110000000111110001000000100001111111100000111000010010
1111111111101110001000110000001000001111000000001111001011110000
0000111100000000111000000000111111110001111100011110111011101110
1111110011101111111100011111000100011111111011111111000000100010
0000000100010000000000011110000011100000000011111111000011100010
1111111111111110000011111110000000011110111111101111001000011111
0001001000000010000000000000000100101111000000010000111100101110
0010111111100001111100010001111111111111111011110000111011100001
0000001000101111000100000010000100010001111000101111000100001111
0001001000001110000000000000111111110000000100000000001011111111
0001111111111111111000010000111100000001111000101101111011001110
0000000100001110111000000000110100001110111000000000000011110001
0001111100010000000000000000111111010000111000011111000011101110
0001000000010000111011111111111100000001111011111111111100100000
0000001000001110000100000001000000000001111100000011010000010001
0001001100110101111011101110001000011110111111010000000100101110
0010111100010000001100100000001000100100001100100011001100010010
0011011000110110001000010100001000100000001000101111000011111111
0000111111110001001100111111111000100110001000010001000100100100
0000000100000010000100100010001001000100000100010001111100110011
1111000100011111010001000010001001010011011001010001001000110001
1110110011011110010000000010001001010100010101010001000100100100
0010001011110001010001100011000100110101010001111101000000010010
1100101110101001010001000000111101000110011001010010111100110101
0001000111100000011000110100010000110110001101111110111100100010
1101110110111010010101010010001001110101011000110010001001010100
0010000000000001010001010100010100010100010001000000000000000001
1111000111111101010000110100000100110011010101010001001101100101
0011001011110001001100010100010011110001001000001111111011010000
0011001000110001010000110011010001000011000000010000000101000101
0001000111101111000111110001001011011111111011100010000100011111
0010010001000100111100010000010000001101111011110010000100010000
0010000000100000110011011111000111011011111010110001000100011111
0010010001000011110011100001000111001011101111011111000000001101
0000000111101111110111011101111111011011111011000010001100010000
0011010000100001110011011111000011001010101010101110000000011101
0000111100000010101110111100111111001011101111010010010000101111
0000001100100001111100001101111111001001101011000001000011111110
0001000111110010101011001101111011101100110111000100001100001110
0001001000000010000000001111111111001001101111111110001000001110
0000001000010001101011001111111111101100111011000100001100011101
0010010000100011000100000001000100001110111100000000001011110000
0001000000010000110111110000001011001011110011000100001100101101
0100010101000100000000010000001100011101000100101110001000000000
0000111000101111000100100010001011011110110011100111001100011111
0010010101000100001000110010001000100000000000001111000100110010
0011000000001110001000100001010010111011111100010101010000101100
1111010000100101000000001111111101000011000100000010001000110010
0011001000010001010101010101001011010000000100010001010100001111
1111001000000011001011110010111101000010000000110000111100100001
0000111100000010010101000100001100010000001101100000001000011110
0001000100010000111100000010110101000100001000001111111100000010
0010001011110001010101010001001111110011010001011110000011110000
1111111000001101000100100001001000110010001100011110111000100000
0001111100101111010000110100010000110001001101001111110111110010
0001000000001111001100100011000000110001001100100001111111100000
1111001011100010001000010010010000010101010001000000000100100001
0011000111101110001100100011010000000000001100000010000100001111
0001111000011110001000010010001101000001010000110100001100100010
0011010000010001001100110011010000010000001000110000000111100000
1110000111110000000011110000111100110011001100100010001101000010
0100010101100100000100110011001011110000111100011110000100011111
0010000000010000001000011111000000010010000100000100010001000010
1111001000100011111111101111111000000000111011011110001000010000
0001000100100010000111111110111111111110000011101111111011101111
1111111100000001110010111010110100101111111111000010111100010000
1111000000011111111100011110000000011111000011111110111100000001
0000110111100000000011101110110100001110111111100001000100011110
0000000011110001111000000000111100000000111100000010001000010000
0010000100101111000100010001001011111111111111110001111011110010
0000111100010001111100011110111100001111000011110001111100010001
0010000011111110000000001111000011100001111100000000111111110001
1110000111111110111100100000001000000000111111110000000011100000
1110111011110001111111111111000111110001111100000001000111101110
1111111111110001111011101110000000011110111011101110111000001110
0001111111011111000111101110111011111111000100010000000000001110
0010111000010001111100100010001011011111000000011011110111001101
1110111011011101111011111110110000100000110111010001000000011111
0000000011110001000100010000111111101101000011101111110111011111
1101111011100000110100001111110011100000111011100001000111101111
1110000100011111111100000001001011000000111111010000111011111110
1101111100010001000100001111111011110011001100001111111011111110
0001111011111110000100000001000011101111111100001110000100011111
0001111000001111000111111111000100010100001100110000111111110010
0010111000001111111100001111000011110000111111101111111100011111
0000000000000000000100100001000100110010000100101111000011110000
0001000100011111111111100000111100000001000100000000000111100001
0000001011101111001100100001000000100001001000101111000100010000
1111111111110001001011100001001011110000001011111111001100000000
0010000111101110000000100001001000100001000000110000000100001110
0000000100101111000011111110111100000001111111110000111100000011
0000001000001101000100110001001000001111000000001110000100001101
1111000100000010000000010000000001000100000100010001000101000011
0010000000110001000111110011000111110000001000010001000111100000
1111000100000000000000100000000101010101001000110010010001000100
0010010100010011001000010010001111110001000100110000000000010000
1111000111110010010000100000001001010100010101100001001001000101
0100001100010011000101000100011000010010001100111110000011101101
0001111111110001010100110100001100110100011101100010000000010010
0111010001000011001000010011010000010000001101001111111100010000
0001000111100001010000110100001111110010010100110001111011011111
0110011101010100010000100011011011100001001000101111001000001110
0001000011100000010000010000001111110001000100101111111010111101
0011011100100010010000100100001100000000001000101111000111111101
0001000011110001000100110001000011000001001000100000001000001110
0100010001000010000000000011010000000001111000000000111100001101
1111000100001110001100010000000111100001000000000101000000011110
0010010001100101001000010000000011101101000011100010111111101110
1111111100101111111011011110111100000010000100010011010000100001
0000001001000100111111111101000111011100110100000000000011101101
1110000111100000110111011110000000000001000011110101001001001111
1101000000110011110111011110111111001101110011100000000100001100
1110111111100000111111111101111100000001111111100100001000000000
1110110100010011111111011010101011011101111011100000111011101111
0000000000001111101111001101110010111100111111101110111011111110
1100111011010000110111001011101111001011110011110000000000001111
0000111011110001110111011011110110101101110110110000110110111101
1100110011101101111011001101111000000000000011001111000111101111
1111000011110000111111011110111111011100110100000000111111011111
0000111000001111111111111101111100001111111111100000000000000001
0001000000000000000011111111110011110001111111101111111111101110
0010000000001110111100000001000011110000111000010001000111110000
1111111011100000111111111111111000010001000000001111111111111111
0000000100010010000111110000000100000000000000011110000100000000
1111111011100001000011101110111111110000001000000000000100100001
0101001101000001001000001111001000000001000000101111111100011111
1111111111101111000100011110000100010001111111101111111011100010
0011000100001110000000000010000111100010111100010000001011111110
0001000100000001001011110000000111110000000100001101000011111110
1110000000001110000000100010000000001111000000101111111011110001
0000111100010010111100010000111000010010111100010011001011110001
1111111111111111000100100001111111100001000100010010000100010001
0001000011101111111011110010000011110000001011110000000000000000
1111111000100001000100101111000111100001001011100000000111110010
1111111100001110111111100000000100101111000111111111111100011111
1111001011110010001011111111111111100001000011100010000111110001
0000000000011111000100100001000100000010111100010010000100000000
1111111100011110000000000000000011110001000111111111000100100010
1110000100000000111111101111001000000001000111110001111111110000
1101000000000001000011011111111100100000000111101110000011110000
0000000000001110000011111111000111101110000000000010000100011111
0000111111111111000111101111110111110000000000001111111100011110
0001000100001111111011111111000000010001000100010100001000010011
0001000100110001000011010000111000011111110111001110111100010000
0001000000010001000100100000001000000011000100000100000000110010
0011001100000011110111100001001011001101110011101111111011111101
0001000000000001001100101111000100100010001000100000111100110001
0010111100100010111100011110111011011101110111010001000111111111
1111111111100001001000010000000100010100001100110001001001000011
0000111100010010111100100000000111001101000100000001001011010000
0001000000101110001101000011001101010110010100100000001100100101
0000001000001111001101000101001100010010001000001111111011101101
0000001000001111011001000100010001000011011001100100000100010100
0110010001000010001101010010010000010000000100111111000111100001
0010000000001111010000100101001001000001001001010110010000010011
0111011101010100010101100101011000010011001000100010000000000000
0001001000010001001100100101001100100001001000010100010100010010
0111011001110111010001110100010100110101010100101110111000010001
0100000100001110001100010011000111111110111000010100010000010001
0110011001010100001001100110010001010100010100110000000011100010
0011001000000010111011100000000011001101110100001111111011100000
0001000011111110001000010001010001000001000100101110111111100010
0011001000010001110011010000000111101111110111011011101111101101
1111101010101011111000010010111100110011000100000000111100010011
0001111111110000111111101111000100001101110011011001101011101101
1110101110101001000100011111000000100011001000000010000100000000
0000111111101111111111110000111111011110111111111001101010101110
1111101110111010001000100010000001000100000100000000111100000010
0001111100000001000000000000000011100001000111011001101011001101
1101110110101001010000100011000000110101001100110010111100010010
1111001000000010000000000010000011100000111000101001101110101011
1111110110101001010001010101001000110010010001000000000111110100
0000111100010001000000110001001111110000000100011011110010111100
0011000010101011001000100100010100110011010000010000000100110001
0001000100001110001001000011000100001110000100101100110011001101
0011111111111011010000110101010100100011001100000001000100110001
0010000100010000001000110010001100010000111100100000111011110001
0011010000011111000100010100010000010011001100010001111100010010
0001111100101110001100100100001001000010000100110001001001000011
0100000100010001111111100000001011110010000000000010001011110000
0011000100011111010000010011010001010011000101000011001100110011
0001000000110011110111010001000000011111111000010010000000000000
0001000100000000001001000011001001010011000100110010000101010110
0000001000010011110111101110111111101110110111010000000111110010
1111111111110001001100100011000000100011010001000100010100110100
0000000100100011111011011111000111011110111011010001111100010000
1110000111101111001000010001000000010010000101000101001100100011
0011001001000100111011001110000111111110111011010001001000001111
0010111111110010000100010000000000110011001000100100010001010101
0001001000110101101110111101111111101101110110110010000000000000
0001001011111110001000110001001000010001001000110110001000100100
0010010001010100110111101111111011110000111011100010000000001111
1110000000011111001111111111000100100010000100000100001100100100
0000001101000101110100001111000111100000111111110000000100000001
1111111100010001000111101110000000100011001100010011001100110100
0011001100100010000011110001001000100001111011100001111100011111
1111111100000010111111110000111000001111000100010001001100100010
0000000000000010001011100001000100001111111111111111000100001110
0001000100000000000000100001000100010001001011110010000100001111
0001001000000010111100000001001000011110111111110000111111101111
1110000111110000000000010000000100001111111111111110111011100001
0001000100010001000000000001000000010000111000100000001011110001
0000111011110000000011110001000011110000000111101111111111100000
1110110111011101110111110000000011111110000000000000000100011111
0001000000011110111011100000000011110000111100001111111011101101
1111000011101110000000000000000100010001111000000000000000010000
0001000011110000001011100001111100010001000011111110110111011111
0001000011001110111011011110000000000000000100010000111000101111
0000111100100010111100010010111100010011001000101110111011100010
1110000100011101000100001111001000110011000100011110001000100001
0000111100001111000111111110000100110001010000001111111100100001
0000111000100001000000101111000100010010000100000010001000110011
1111000000001111001100001111000100110011001100110000001000110011
0001000000010010000000100010001000110011000100101111000001000011
0001001000001111000000000001000000010100000100010001000101000011
1111000100010000000100000010000001000011001000000000001100110101
0001000000010000000011110000000000110010001100110010010001000101
0001111111111111001000010010000001010011001101000001001101110111
0001111100000001111111110000111101010100000100100001000000100101
1111111100001110000000110000000101000001010000110010000001100101
0000111100001111001000000010000001100100000100101110000001010101
0001111011111111111000000000000000001111000100000000000001000101
1111000000100010000000001111000000110100001111111110001001010100
0001000010101101110011010000000011011011110111000001001001000011
1111000100101111111000000000000000100000001111101101001100110110
0011000011001011110111101111000010101010101110010000000000101111
1110000000010000111011101111000001000000000100001111000100100100
0001000011011100110011100000000110011010100110110001000111111101
1110000000101111111011110001000101000010000000001110111101000011
0000000011001100111000000001001110011001110011010000001000011100
1110000000010000000011101111000101100100001111110000000101000101
0010000011001111000000100100011011001101110011110000000000101110
0000111100000010111100100010111100100010001000110010010100110000
0011001100000000000100010110011111111111111100000000000000010000
0000111100010010001000000010111100100000001100010100000100110010
0110001100100010000001000100010100000001000000000001000100111111
0000000000100001010000010011000111111101000100100101001000001101
0100001101000110000000010001001100110000111100001111001001000011
0010111000010001010000100000000111011100111000100100001000001100
0100011001110110111111110001010000010011111111110000001101000010
0001111000011111010100100011000111011011111000010100000111101100
0011001001100110111011011111000000100011111100101111000100000101
0010111011111110001101000000000110111101111100010010000100001011
0001000000010100111000001111111000100011001100010010000100110010
0001000011110001000000110001001011111111000100000000110111101100
1110111111111110001100010000111101000011001000000001001000000011
1111000011111110000011101110000000000001000100001111111100001111
0000111111111101010000000000000000010100001101001111111111110001
1111000100011111111111111110001000001110111111011101000000010001
1111111110111111010000010010001001000011010001100000111100000011
0001111111110010111011010001111100001111111111101111000111110001
0000111011111100011001010001001000110001010001001111000100000001
1111000011111111110011101110000100010000000011011110111000100001
0001111000011101010001000011000100100000001100111111000000000000
0010000000001111111100011111000100100001000111110001000100010010
0010001101000011001000010011000100001111111100000001001011101111
1110111111100000000100000010000000010011001000000011001101000001
0001001000010001111100000000111100100001000111110001000000000000
0000001011110001001000101111001000010000111011110010000000011111
1111111100010010111111111110000100010001001011101111000100010001
0010001000000001111000101111000011100000000111111110000000001111
0001000000010001000100000001000000010001111100011110111100101110
0000111111101111000100010010111100010001111100100010000100010010
1111001011100010001000101110000111110000001011110010111111110001
0000111011110000001000000000000011100000000011100010111000001110
1111000000001110001011110000001000001110111100010000000111110000
0010000000100001111100011111000111111111000100100001111111101110
0000111000001111000111110001111100101111000011110010111100010000
1111001000011111000100000000000000010000000000101111000000011110
1111111111110001001011110001000000100001111111111111000000010010
0000000111111111111100000000000000001111001000000001000111111110
0001000000101110111011100001111100010001111100010001000111111111
0001000100000000111111110000001000000000000011110000001000000010
1111000100010000111111111110000011110010111100000001111111110000
0000001011100001001000000000000111100001000011110000111011110000
1111000011110000000000001111001011100001111100011111000111111110
0001001000000010000011100001000111101111111000011111111100010001
0001000100001110111100010000111000001110000111110000001000000000
0010000111110000111000011111001000000000111100001111000011111111
0010111011111111111111100001111000001111001000001110000100100001
0000000000000010000100010000111000000000000100100001111100010000
1110000000001110001011110001111011110010000000010001111100011110
1110000111110001000011101111111111110001000111111111000100100000
0001111111111111111111110000000111111110000000011111000111110000
1111000100011111001011100000000100010000111100000001000111110000
1110111000101111000000001110111111111110000100010000000000100000
1111000000010001000000001111000111111110001011110000000000001110
0001000000000000000000001111000100010000000000000001000000001111
1111000111100000000100000000000100100000000100000000111111101111
0000111111110000000011111111000000000000000111100010000000000000
0001000100000010001000010001111100000000000000001111000011111110
1111000000000000000111100000111100000000000011110001001000000000
1110111011110010000011110001000100001111000100100001001000000001
0000000111101111111100011111000100011111000000010000000000000000
0000000100001110111100011111000100000000111000010001000111101111
0001000100000001111111100000111011100001000000101111001011110000
0000000011110000000011110010001000010001111111110001000100010000
1110111011111110000100000001000100100001111000100001000011100000
0000000011110000000111111111000011110000111100000000000111111111
0000111000100001111111111111000000000001000000010010000100101111
0000111011111111000000010010111100101110111000101110111100010000
0001111111111111111111101110000100001111001011110001000100100010
0010111011110000001000000000000000000001000100001110000000001110
0001111100000001000100000000000011100000000011111110111000010000
1111000100000001000100010000111011110000001011101111111011111110
0000000111101111000100001111000111100001000000011111001000000001
1111000011110000000000010010001000011110000100011111000011110000
1111000000100001000011100001000100010001111000000000000011101111
0001111100000000111011111110000100011111000000011111111000010000
1111000000011110111111100001000111111111001000011111000100011111
0000111111110001111100010001000000010000111000000001000000010010
0001000111100001000100101110001000010001111000000000000000101111
0001111000000000111100011110000100000000000000001110000100000000
1111111100010010111000001111111100100010000011110000111111110001
0010111011110010000000000000000100101111000000100001000011100000
1110000111100000001000001110111000100000111000011110111100000000
0001001000100001111100000010000111110001001011111110111100000001
0000000011101111111000010000111100010010000011110010000000100000
0001000011111111000000100000111000001110000000011111111100010000
1111000100010001111100000001111100010000001000000010000100100001
0000000000100001001011100001000011100001111100011111001011101111
0000000100001111111000010001000011110001111100001111000111110000
0001111100000000000111111111111111110000000100010000001011110001
0001000111111111000100010001111011110000111111100001000100000010
1111001000011111000000010000000111110001000000011110111100001111
0000000100000010111100011111111111101110000111110010001011100001
1111000011110000111100100001001011111111001000000000000011111111
0010000100010000111000100001000100001111000000010001001000000000
0001000111110010111000011110111100100001111100001110000000000001
0000000100010000111000000000000100001111111000010001000000001110
0001111011101110111111100000000011110010000100000000000011110010
0010000000010001001000110010111111100001111100000001001000001111
1111111111101111000000011111000111110001000000011111000111010001
0010000000011111000100100001000100010000000100111111111100000001
0000000100000010000111110001111111100000000111111101111111001111
0001111011111100010001010100000100100101001100010000000000100011
0010001000011111000100010001000000011111000111111101110111011111
1111110111011100000100110001110100110100010100111110000100100010
1110111100101111111111100001000100000001000100001111110111110001
1111111011001011001011111111111001000010010100101110000011110011
1110000100010000111011101110000100100001000100001111000011111111
1110110010111110000100001110111101100100000100000001000000000011
0000001011101111110111111110111000100010111111101100110011100001
1010111011001101111011101111111100010000000011111111001000100100
0000111100100001111111101110111111110010000011101100000100011111
1101110011001011000011011110111100111110000000011110000100110101
0000111011110001110100001101110100001111001100001111111100010011
1101110111111110111011101110111100101110000000000000000000100001
1110001000000001111011111101000001000011001100010001001001000100
1110111100011111110111011100111011111111111111000000000000010001
1111000100001111001100000000000100110110001000100011010001000101
1111001000100000110011011011000000001100110011010010111111111110
0001111111110010001100100011111101110110010101000010010001110110
0100001101010011101111101110111100001110110111110000000111111110
1111000111110000011100110010001001110110011101110011010000110100
0101010100110010110011111111000011101110000011100000111100000001
1111111111101110011001110101001001110111011101111111000000110011
0101010001010010001000010010001100100001001000001111000100001111
1111111100100000010000110100001101000100010001001111111011110100
0011010100111111001101010100010000100001010000110001110111100010
0001000011110001001100110010111101010011001101000001000100000001
0101010100110010001000110100010100000011001100010000111100000000
0001111100100000001100101111000000100010001100110011000100001111
0010011001000100001000100101000100000010000000111111110111110000
1110111000010010000111111111110000011111000100010101000000000000
0001001101110101001100100011000111111110111100100001111011101110
1111000100010000000000001111110011010000000100000011001100011111
0010010001000111111100010001111111111100111011110001000111101101
1110111111111110110111011101110011101101110011110101010000011110
0010001001010101000111111110000111011110111100010001111000001110
1110111011110001111011011101110011011110101111000100000100101111
0001000101000101111111110010111111011101110011111111000100010000
1111000000011110110111011100110011101100101111100011010100001111
0001000100100101111111100001111111101101110111010010111111101111
1101000111100010101010111011111011111110110111100011010100101111
0010010000110100000000000001000111111111000100010001111111110000
0000000011100000110111011110110100000001111011000000000100101111
0011000100000010111011111111001011110000111011010001000100010001
0001000000100001101111000001111011110000110111000001000000010001
0010001000101111000000010000001000001110000100010001001000101111
1111000000000010110111011111000100001111111111011111111111011101
0001000111101111001000100010001000001111111100100010111111111110
0010000100001111000011111111000111110010111111111101000011110000
0000000000011110000100011111111000010000111100100000000111110000
0010111100011110001000100000001011110001000000010000111000001111
0000111111110001111100011110000000010001111100000001111100100001
0010111000001110000000001111111000001111000111100000001011110001
0000111100000001000011111111000000000010000000010001111100000000
1110111100101110000100010010000111111111001011110000111100101111
1110111100001110111100101110000000001110111000010001111111110001
0000111111100010111111111111000111100001000011100001001000010000
1111000100100000000000100001111100010000000000011110111100000000
0000000111110010000000001110111000011110001000001111001000000000
0000000111110001111100001110000000100001111100100000000100010001
1111000000010001111011100000000100000001111100101110000011100000
1101000011100000111111100001110100010001000000100001001011111111
0000000111100001000100101111000111101111000011101101110111011110
1011101110101010111011111111111000011111000000001110001011100000
0001000000001111000000001110000010111011111111111011110011011010
1110101111101011000011111111110000001111111000000000000000001111
1110000000010000110111101101000111101101101111111111111011101110
1111111011101111111111011110111000000000000111101111000100001111
0001000111100001111011110000110111111111111011100000111000001110
0001000111110000111111100000000011110000000000010001000000011111
1111000111111111110011101101000000001110111111110000000000000000
0001000100010000001000100001001001000010000111110001000100100000
1111000111111110000011011100111100110001111111110100000000010011
0011010100110010000101000100010001010011001000000000001000000011
0000000000010010001011101111111101000100001100100010001100110100
0011000100100010000100010100010101100100010000011110000100100010
1110001011110000001000101111111001100110000100010100010001100110
0011000011110001010100110011001101000101010101000000111011100100
0010000100000001000100010001000101100110010001010010010101110111
0011000011101111001000110101001001110110010001010001000111110001
0000000000010000011000100100001001110110011101000010010101110111
0001111111001110010101100101011001000110010001110000000011110001
0000001011111111010101010011111101110111011101111111011001100111
0011111111101111011001010110001101010101011101101111111011110011
0010111000000000011101110110000101100110011001111111000101010111
0011111011101010011101010110001101100110011101010001000000000010
0010000100100000011101110101001101000100010001101011111100100101
0010111011101100010101000011001100100110010001011111111011110001
1111000011111111001101010100001000100010010001001011101111100001
0100111111101100001100010010010101000101001101000000111111100001
0000000111110001001101010010000100110011001101011011110011110001
0011000110111100000100000010010000100000010011111111111100000010
1101000111111111000100010010110100100100001001001100111000010011
0100001011011011111011110000010100001110111000000001000011101110
1111111111111111001000001110110001000101011000101101000100110011
0011000011101100111100001111001100001111111011110001111011011101
1011111000001111000011011100110101000111001100111111001000110110
0000001000100000111011110001000011101101111011000001000011111101
1101111100010001111111011101110001010011001011111101111100100101
1111001000010001110111001100110111101110110110110010111100001110
1100000011110001111011011101110000100001000111011111000000100010
1110001000011111110111011111110000001100110011011111000111011111
1011111000011111111011011011110100010000111011011111001000010000
1100111111110010111011001011110011111111000011110000111111110000
1111000011111111111011001011110011111101111010110100010000110010
1110000100010001110111001111111111111110000011100001000100011110
1110000111100000111010111110110000001100111011110011001100100011
1111000000100011110111110000111011100000111111011110000011101111
1110000000101111111011101011110000011111110011110100010101010010
0010000100110101111111111111000100000000000011111111000100011111
1110000100100010111111011110111100001111000011010111001101010001
0011000101000101111100000001001000000001000000101110111111100000
1110000011111110111100001101111100010000111111100100001100100001
0010001000110001001100100010001011100010000100100000000011110000
0000000100101110001000011111000100110001000000100001000000100010
0101010000100001001000000001010000010010000000010000000000100001
0000111100010001000100010001111100010001000000010001001100010100
0001001100100011001000110000000111110010111100010001000100010001
0000111011110000000111110000000100001111000000011111001011110000
0000000000000001001000000001001000010000000011101111000011100000
0000111011111111000000011111000000001111111100000001111100010001
0010001011111111000011110000001000010001000000011111001000010001
0001000000011111111000011110000000101110111011111110001000000001
1111111100001111111111101111111100001111000000010000000100010010
0000111100100010111000101111000100000000000011100000111100010000
0001000111110000000000100000001011111111000100010001111011100001
0001000000011110111100101111000100010010000000010010111111111111
0001001011110001000000010010111100010001000000100000000100010001
0001000000100000000100001111111100000001000011110011001000010010
0011001100100011001000010100001000000001001001000000111011101111
0010000111110001000000010001000000111111000100100000000000100010
0001001101000011010001000011010100110100010001010001111011110001
0001000011110000001000100001000100000010000100101110111111101111
0000111100011101001100100000111100110011001101000001000000010011
1110111111111110000100011111111100100010000000001101000111110001
1111110011001100000100011111000000110100001100111111001000000001
0010000011100001001100001111111100110010000100011011111011111111
1101101010111001000011011101111000100011010000011110111100110010
0010000000011111001000010000111111110000001100011101111011100001
1100101010011100111100001111111100100011000111100000001000000000
0010000000010010111111110001111111101111111100101101111111011111
0001111111101110000000001101000100010010000100010010111100110010
0001111011110000111100000000000111011110111100011110111011110000
0010010000100000101111000000000011100001000111001111111111110010
1110000111101111000000001110111111111110111011010000111011001101
0010010100100010110110101110111011111110111010110000111100000001
0010111100010000110111010000000111101111111100000000110111101111
0010000100100001110110111100111011111101110011001110001011111111
1111111100101111111011001111111011111101111111111111111111001111
0000010101000000110011101100111011100001000111101110111100000001
0000000100000000111111101111000011100000111000000000000000011111
1111010101000000000111101101111100101111111100010010000100011111
1110111100000010111111111111111111100001001111110010001000100000
0001010001010011001100000000111100110001000100110000111100010010
0001001000010000000100001111111100010001000000110100001100010000
0001011101110111001100010001111001000001001000100001111100100000
0010000000000001001000011111111100100010001000000111010101000001
1111001101110111000000101111111100010000000100100001000000000011
0000000100100001001000011111111000001111001000110111010000101111
0000010101110111001000100001111000100011001000111111000000100100
1101111111110001000100000001111011110000000100010111011001010001
1111000101010111000111100000000100100010001000111111000000100011
1111111100010000001011111111111011111111111100010111011001100001
0001001101000111000100000000000100000001000100000010000000000100
1111000111101111000111011111000101001111000011100111010101010110
0001001101000111110111010001111100000010000100011110000100100010
1110111100010001111011110000110100110010111100010110010001010100
0001001001000101000100000000000000110001111011010001000100000010
0000001000010000000011111111111001000010000100010011001101000101
0011001000110011000011110010000100010001000011110000111100011111
1110000100000001000111110001000000100000000111111111000100100001
0010001100001111001000000010000000001111000000010000111000010000
0001111011111110000111111111001011100000000011111111110100011110
0100000111111110000100000001000011111111111011100010000100011111
1111001011111111000011100001111111101111111111101110110011101110
0011001011111110111000001110000111101111111100000010000011101110
0001111000100001110111100001111110111100111000001101111011101100
1110110100001111111111101111111111111110110011110010000000011110
0010000000010000111011111111000111011110101111011010101011001010
1011101111001101110011011010101100001111110111011111111111101111
1111000000100010000100010000000111011110000100011101111011001101
1101111010111110111011111100111100011111000111110000001000000000
1111000100101111000000010000000111100010001011100000000100101110
1110000100011111000011101111111100001111111100011110000011110000
0001111100000001001000100001000111110010000000000001000111100000
1111111100000010111100000000111000001111000000000000111000101111
0000000111110000000000100000111100010010111011101111111100101111
1110000100100000000100010001111111110001111111110001000100010001
0000001000100000111100000000111100011111000100010000111100010001
1110111011101111111100010000111100011111111111110001000100001111
0000111100010000111100000001000100011111000011100001111000101111
1110000011110001000100000010000100010001000100001111111011111110
0000000111101111000111110010111000010001001011110000111111100000
0001000000001111110111111111000100000000110100011110000100100000
0000000000011111111111110001001000001110000111101111001100100010
0011001100100011110100000010001111111110110011110001111000000000
0000000111110000111100000010000000000000000100100000001000010000
0010010101000100111011110000001000000000110111110001001000101111
0000000000011110000100000001000000100001001000010010001100010100
0110010001010110001000000010011011111111111100001111000011111110
0000111100101111000111101111111101000011001000010101010000010001
0101011001010110000000010100010000010010000000000000000100010000
1111000011110001000100010001000000010011001011110011001000010001
0010001100010001010000110101010000010011001000101111001000000100
0000111111110000000100000000111000100100001100110000000000100011
0000000111111111011001010011010001010101010000110001001000010100
1111111100000010001000000000000000010100010000011111000000110011
0000111111101111010101110100010001000010010101010001000100100100
0001111100010001001111111111111100110001001001000010000100010010
1111110010111111010101000100001101010101001101011111000100100100
0000000100010010001100100000000101000011000100010001001101000101
1111110111100001001001010101000100110101001101001111000000010010
0001111000100000000100100010000100110011010000010011010101010101
1111110000000010001000010011000101000010000000011111000011110010
1110111000010010000000100000111000110001000100000001001101100111
1111110011100010000000010010000100100011000000000010000000000001
0000000000010000000100000010111101100001000000010010010001100110
0001110111000000000011110000001100000001000000001110000011111111
1111000100100010000000011111000000100011000100000000001001000100
0000110110101010001000110011001000000000111100011111000000011111
0000111100000001111111111111111101010001001011111100000000010100
1110110111001011000000000011001100101111111000010001000011111111
0010001000000000001000100000111100010011001000011001111000010010
0000110010011001000000110010001111110001111100010001111011101111
0010001000011111000100110000001100110100000100011001110000100010
0011111110111001001000010100010000010000001100000000000011111110
0001000000010001010000100011000000010010010000011100110000010001
0001111111011100000100110100010111101111001100110000111111111101
1111000111111111000101000011000000010010010101001101110011110001
0011001011011011001100010101001100000001001000010000111111111100
0000000000000010001100110011000100100001010000100000000000011111
0010000011100000001100110001001100000001000100100001000011111110
0000000100000010000100010001000000000010000000100001111111110001
0010000100100010001000010001001011101110000100000000111011111101
0001001000001111000100001111000000010010111100000100011000100010
0000001000110100111000100000111111110000000011011110111100001111
1111111100010001000111100000000100100001000111110110011101100100
0001001100110111000000010010000011100000111000000000000111110001
1111111100001111111100000001111100010010111111110110011100110010
1111001001010110111111110001000000001110001000010001001000000001
0000001000000010111011111111001001010000001100000101011100110101
0001000000110110001100100000000000100000001011110010000100100000
0000000100001111111100000001111000010001111000000001001000110001
0001001100000001001100100011000111111111001000000000001000000010
0010111011110000000000010001111000010000111100010000111111101111
0000111011111111111000000001111100001110001000101111111100000001
0001111100000010000000010010001011110010111000101110000011110001
1110111111101111000111110010000111111111001000010001111111100001
1110000100011111111011110000111100011111001011111111000100000000
0001111111100000000000000001111011100010000000000010000100010000
0010111111111111000000000000111011110000001011110000000000000001
0010111011110000111111110010000100010000000000011111000000000001
0001000000001110111000010001111100010001111100000010000111100001
1110111100000001001000010010111011110010000011110010000100010000
0000111100000000111100010000111011110000000000001111111011010001
0010111111110000000000010000000111100010001000000000000100000010
0000001000010000000011101110001011100000111000011101111111001101
1101111011110000000000000001000111111111000000000000000100000010
0000111011110010000011110000000011011110110111011111111111101100
1011101111101101000100011110110100010010000000100001000000101111
1110000111100001000011110000000011011101101011101110110111011101
0000000100010001000000100001000011011101000011111111001000011111
0001000111100000110111110000111110111100110010110010000011001101
0000001100110011111011110001111111111101110111101111000011111101
0001000100100010110000001101000011101011101111000101001000001111
0110011101110111000100110010001111001110111100001111001011101111
1111111011110000110011100000000100001011111011100110010101000010
0110011101110111001011110001001111111111111000010000111011110000
1111111100001111110100011110000000110000111000000110011100100011
0100011001110111000011110001000011101111111100011111000111101110
0001000100100010000000001111111100110001000000110110010000110100
0011010101110111000011110000000011100001000100101111111100010000
1111111100000001001000110000001000010010001001000101010000110000
1111001101110111001000100000000011110000000100000010111000000001
0010000100100001000101000001001100000101010101000100000011100000
0011010001100111000100110000111011110010001100010001111111111111
0000111000100000010001010010010011110011010101000101110111001100
0010010001110111001100110000111000001111001100101111000111110000
0010111011110001001100110010001011001111001000010110111010011011
0010010101100111000000110011000111101110000100001110111011101101
0000000111100000111100110011001011001110000011110010000110011001
0000001101000110111100100001000011101111000000011111000000001110
0001000000100001111100100000000110111101111111110010000111101001
0001000100110011110111011110111111001110110111101110000111111110
1110000000101111000011111111111011011101110011100010001011011110
0001000000100011111011001111110110111101111011000010111111001011
0000000111111110110111010000000111110000000011110011001100000000
0000000000100011111011101110110110101110101110110000000000001100
0000111111110000110111010000000011110000111111100110010000100000
1111001000100011000011111110000010111100110110111110111011101010
1110111111110010110011001101110111100000111011110110010100111111
1101000100000010111111101101000010111001111010111110111000001110
1111000011110001111011101110111011101111111011110100010100001111
1110000000010010110111111111000011101100101011001111000011101111
1101111000010010111011011110111011110000111111100001001000110000
1101000100000001110011111100111111111110110010110000111000001110
0000111100010000000000001101111011100001111000000000001100011111
1101111000100000111011001110110111011110110100000001000011110001
0000000011111111000000001110000011110001000000011110111000011111
0000111100000010110111111111111100001110111011100001111011100001
0000111100010001000000001111000100010000000000100000000000011110
0000111000011111111011011110110000000000111000011111000100001111
1110000011110001000000000001111000100000000111111111111011111111
1110001011111110001000001110111111110011001000111111111111110001
1111000100100001001100000010111000000001000100000000000111100010
0010000111111110001001000001000111110001001100111111111000011110
0000111011110001000100111111001000110100010000100100010100100010
0110011101010100010001010110011100010001000100100000001000000001
0000111111110001111111100000111100100011001100010101011001000011
0110010101000110001001000001010100010010000000100001111100011111
0000000000010001000100011111111100010000111100100010000100010010
0001111100101111000000000010001011111110000100100001000000000000
1111111100001110000100101110000011110001111111110001001011110000
0000000000001110000000001111000111101111000100100000000011111111
0001000100010000000100011110001000010001000100001110111100001111
1111000000001111111100001111111011100001111100101110111000001110
0010000100011110000011111110111111110000000100011111001000111111
0011001100100010000100000001000100011111001011110001111100000001
1111111111110000111011110000000000010000111100010011010100110100
0010010101000011000100000001001000010010000100001111000111111111
0001111111100010001000101111111001100101010100110101011001010011
0101010101010110001000100100001000001110111000001110000000001111
1110000000011111001100100001000101000011011000010100010101010100
0110010101010011001001000010001011100000111011111111111011101111
0001001011100010001000010000000100100101001001000100010100100100
0100010101000100000000000001001111110001111000000001111100010001
0001000100010000001000100010111100100001001000110101001000110011
0011001000110011000111110011001011111110000100000000000111100000
0010000111111110000100000000001011111111000000100001000011111111
0001000000000001111100011111111011011101111111011111000111101011
0010111100010010000011111111000100011111111011111111111000000000
0001111000000010000011111110000010101111111011111110111111101101
0001111100000001000100000000001011100001111100001101111111001101
1111000000001100000100010000111010111111111000010000111110111001
0001000011100000000100010001000100001110111000011100110111011011
0001110111101100000000110011000010111101111011111111111111101100
1110111100001110111000010000111011111110111011101001110010101100
0000111011011100001000110010000111001111000000010001111111101110
1111111011100001000011011101000011001111111111101101101110111101
0001111011011101001100100010001011100001111101000000000111101110
1111111000000001111111011111111010111101110011000001000011111100
1111000001000001000100110001001100000011000100010001000011110010
1110000000010001110111011101111100010000111111110111010100100001
0011010001100100000100000100000100011111000000010001111000010011
1111111000000001111011101111000000110001111011110111011101010011
0011010001000111111000101111001111101110000000000000000000010001
1111001011110010000100100010111101000000000100100111011101110101
0001001001100110111111110000001100001111110011011110000100101111
1111000100011110000100000000111101100100010001000111011101110111
0010001100110111111111110000001100010000000111110010000100110011
0011000100011111000000000001000001010100010000100110011101110111
0100001101100110000000000001001100100001000011111110000001000010
0010000000000001000000110000001101000100010000110011011001010110
0011001100110001000100100100000100010011001100100001000000110100
0001000000000001000000000011001001000101001000100001010001100101
0010010000100010010001000100001101010011001001001110001000010100
0010000000001111000100000011001101010101000100100001001101000110
0111010101000011010001000101010000010010010100110001111100010100
0010111111100001010000010100001000100011000100010001001000100000
0100010001010011011001010111010000010011001100111110111100100000
0010001000011111000100100011001011110001010000000001001000010001
0110010000100000001101110100001100100001001001000001000100010000
0011111111101111000100010011001000000000000000100001000011110000
0011000100110011001100110101010000010011010000110000000100000010
1111000100000000000000010000001011100010001100011110000111110010
0011001000100000001100100011010000100001000100110010000011101111
1111000100000001000011111110001000010000001011110001000011100000
1110111011111101010000110101001011111111001000111111111100000001
0001000000000010000100000001000000001100111000000000000011101110
1111111111111110000011111111001000100010000011111111000100011111
0000000100000010111111010000000000001101110111001101111111011101
1100111111011100000000010001111100000000000100000001000100010001
0000111111100001000011111111000011111101000011101101111100000001
1110110111010000000011100001111011101111000011101111000000011111
0001001011110001111111101110000111111111111000101110111100000001
1110111111100000000000101110000011110010111100011111000011101111
0000000011101110000111111111111100011111001000101110000000101111
1111111000000001001011101111000011101111111100010010111100100000
0001001000000000111100000001000100100001000000000000111000001110
0000111011110000111100010000111000101111111100001111000000100010
0001000000000000000000011111111100100010111111111111111000011111
0010000011101110000000001111000011110000111111110001111100001111
0010000100011110000111110001000111100001111011110000000100010000
0000111100001111001011110010000000011111111100010001111100011111
0000111111111111111100010000111111100001001000101111000111100001
0000111111011111000100100010111100000000001000011111000011110001
1111000100010010111100000000000100010001000000011110110011010000
1110111011011111000000011110110100100010001000000000000011110010
1110001000011111001100111111000111110000001000111101110011111110
1011110011011101111111101110111100000010001000011111000000000001
0010000100101110000100010010000000010000111101001111111000001110
1101110111011100000011110000111000000001001011110001111011110000
0001111100010010000100100001000011111110001100001110111000001111
1101101010111011000011101110111111110000001100011111111100011111
0001001000000010111100000000000100001110111100010000000000101110
1100101011001101000011101110111000001111000000101111111011011110
0001000011100001000000100001000011111101000000001110111000100000
0000110110111101111100011111111011011110000000001111111010111011
0001000011110001000000010000111111111110000011011110001000010000
0001000011001101000100010000001110111111000111100000111010111100
1111001011110001110111110010111100101111111111111110000100010010
0010001111111101000000100011010111001101000100011111111011011110
1111111111110000111000010001000000100010000111101110001000110000
0011000111101011000100010011010100000001001000010000000000001100
0001000100000001001000010010001000100000000000011100111000010001
0100010100101100010000100101010000010000000100101111111011111111
1110000000010010001000110000000100100001010000101101111000010010
0111001100101101001001100100011100110000010000110000000111100001
1110111111110001010000100000001101000011011001111110110100010001
0101011100101110011101010110011000000101001001010010000011111111
0000111100010010011100110100001001010100001101111111111100010000
0110011100110101011101110111011100100011010101010010000000100010
0001111000011111010100110011111100110100001101010011000011110011
0110010101110101011001100111011100000001001001000001111011111111
1111000100000001011000100010000000010011001101010110000000000000
0110011101110110010001010110010100100001001001000000001011100001
0010000011110001000000000001000011100000000000100011000111011110
0100010101100110000001000010010011100001000000010001000100010000
0010001000010001111011111111111011001111111011100001000011001101
0011001101100110000000000000000111111110111011100001000011100000
1110111111110001111011111101111110111101101110110001111110111010
0001010101100011111011111110000111011100111111101110000100010001
0001000111110001110111110000111010111011101011010000110111101001
0010000101000100110111001111111111101110110111011111111111101110
0001111111101110110011111111000010111011111011001111111011101101
0001001000110010111011001111000000001100110011010001001000101111
0000000000010010110111111111000111101110111011101100110111011101
1101000011110000111111011110111011100001111011110001111111111110
0010111011100000111000011110000011000000000011111010101011011100
1110111111011101111011011101111011101111111011011111000011111111
0010001000010001111100010010001011011111111100001101111010111101
1111111111101010000000000000110111101111111011110010000000000001
0001001011111111001100000011000100010000001000110000000011110000
1101111111101101000011100000000000100001000100000010111011100001
0001000100100001000100100000111100100001000100001101111100001111
1111110111010000111111111111110000011110111111100000000111110010
0010000100100001000011110000000000001111111011111110111011011110
1111110100001110111011111111110111101111000100010010000100000001
0001000011111111001011100000001011110010000100000001000011100000
0010000000000001000000101111111100011111000111110000000100100001
1111000111111111000111111111000100010010000111110001111100010001
0010111000100001000011110001000000010000001000010010000000010001
1110000111110000111100010001000111111111000100011110111111111111
0000000100010010000000001111111111111110000100000010000011111111
0000000000000001001011110000000011100001111011101100110111011101
1101111011111111000000011101000000001110111011010000001000011110
0000111111100010111011111111111111101101000100011111110111101011
1101110111110000110111111101110111110001111011101111111011110000
1111000011110000111000100001111111011110111100010010111000001111
1111000100010011000011100001111111100000111111110000000000010001
0010111000101111111100000010001011110000000100100001000100000000
0000001000100100111100011111001011110001111111111111000100000000
1110000111100000001000000000000100011110001000000000000000000000
1111000111110001111111100000111000001110000100010001000000000000
1111000011110001001000100000111111110001001000011111000011100000
1111000011010001111000100010001011100000000111110000111011101110
0000111111110010000100100100000100010010010000011111110111110000
0000000011001100000100000001001111011111111000000001000111011010
0001000000000000001001000011001100000001000100101111111100001111
0011001000001111111100000100001111001110111011110010110111101010
0011000011101111010000100010010111010001111000001111111011101110
0111011000100001000000010110011010011010110111111110111010101001
0001000000101111000000010010001011101101111111100010110111101111
0111011101110001000101000110011110011010110011010010111010111010
0011001000000001111011100000001011111101111011101111111111100000
0111011101010100000101000111011111001010110000000010110111101011
0001000011110000110111110000001111100000111011110000111111110000
0111011101110011001000010100011111101101110111101110111111111110
0001001000101111000011100000000100000001000100011110000011001110
0111011101000000111000010100010111101110111000000001000000011111
1111111100000001111011110001000011100001000111101111111011101110
0111011101011111000100010010011100001111110100010010111100001111
0010000100101111000111101111001111101111001000001110111011111110
0110011101101111001000010011011000010000000100101110000000011110
1111000111110010111100011111000011111111001100000001111011011111
0011011001110101000101000101010100001110000000001111001000101110
0010000011110010111100001111001111000001000000000100111100001111
0101010101010101000000110100001111101111000100000001000111101110
0010000011111110111111111110000011011111000111110100000011101110
0000001001000110001011110001001011111110000000001110111011010000
0001111100010010110011001111111111100000111011110011111111101011
0000000100110100111011101101111111101111111100011111001000001100
1111111100000000110011001111000111001101110111000010000011111011
1100111100000100111011101101111011111100110111010010111100001101
0010000100101111101110111110000111001011101110110010111011101100
1111111011110010111011011011111011101110111011000000000000011100
1111000000101111101111010000000110111101110111001111000011111101
1110111111101111110010111110110111111111110011010010000111111111
0001000100010000110111111110000111101101000011000000111100001110
0010001000001111110111111101111111011011110111100000111100000000
0001111100000000000000000000000111111111111111101110000011100001
0010000100010000111111110000111111101110110011011111000000001110
0001000100000001000000001111000100000000000100000000111111111111
0011010101000010111011110001001000011111000011110001111111111111
0001111111110001001000100010000000100010000000010000000100000000
0010010000100011111011100001000100010001000000001111000000001110
0000001000101110001000000011001000010001000000010000110111100000
0001000100010001111111111101000011100001111011011111111100001111
0001001000000001001100010010111100010011001000001110111111110010
1111111100011111000000001111111011111111000100000010000100010000
0000111000010000111100011110001000110010001011110000001000010011
0001000000000001000000000000001000100000000100001111001000000010
0001000100011111000000011110111000010000111100100000000100000010
0011111100000001001000001111000011110001001011111111000000000000
1111000100011110000000001111111000011110000100100010111111110000
0010001011111111001011111111000100001111000100010010000100101110
0000001011100010111100011110111111100001000100001110111000010001
0001000011111111111000011111111011111111000011101110000111111111
0001111100001111111100000001000000001101111100001111000011011111
1111000011000000000111101111110111110001000100000001001000101111
1111001011110010000111111111111111111111000100011101000011011110
1111111011010000000011101111000000000001111100000000001000011110
0001111000100000111011111111001011111101111111111111000011111110
1111000011111110111011101110000100011110111111111111000111111110
1111000000011110000011110010001000010000000000000000000111100001
1111111111000000110111111100101100100001111011010000000100010001
0000000100001111000100000010001000100001111000010001001000010010
0000000100100010000111110001111100101111111011110000001000110010
1111001000100000000100100010111100010010000011110000001100100000
0001111100010011000011110000001100100010111011111111001000100010
1111111111100000000000100000000000110001001111110011001001000011
0001000100110100000100000000000100010010111100110000000100010101
1111000000010001000011110000000100010011111100000011010100100100
0010001000100100001000010011001100110010010001001110111101010100
0010000000000000111100100001111000110011001000010010010100110011
0010001001000001010000110011000100110100010000110001000001000100
0001001000011110001011110001001001100101001100100101001100110100
0010010000110011010000010010010000110001000100100000000100110011
0001111000010000000100110000001000110011001100100011001101010011
0110010101010101000100010010010011110000110111111111001000110001
0001000100010001000100010011000101110110011000110111011101000101
0100010101100110000100010001001111001011101111111110000100000000
1111111100011110010000110100000101100011010101100111010101100101
0101011001110111110111110010010110111011110111000001000000001101
0001001000100010001101000001000101100010010100100111011001000101
0101011001110111000100010100001011001010110011010001000111101011
0010000111111111111100010000000100110010000000000100000100000010
0010010101010111000000100101010010111011110100001110111100001111
0000111100011111111111111110000111110000110100000011010000001111
0010001001000010001000000100010011011111000000000001000111111100
0001000000001111111011111111001010111100110011010010111100001011
0011010000110001111111110001001111101111111100001110000000001111
0001000011110010111011111110000010011100110011000000111110011010
0010000100010001111000010010000111011111111011111111000011111101
0000000111110001111100011111111110011010101111101100110010011001
0011001000100001000011110000111111111111111100010000000111001111
0011000111111110001111110010000110111100111000001100101110111001
1111000000011110000100000001111111000000000011101111000000001111
0010111000000010111100000000001010011100111000001110111010101001
1110000000011111000111110010111111111111111000011111111100010000
0011000000010001001000000011000011001110111000101101101110101100
1111111111111111111000011111111011110000111011110010000111111111
0001000111100010111111111111000111001110000111111110110011001100
1111111011111111000011110001000111101110000111100000000100000000
0010000111111111000000000001001000011111000100011111111100001111
1111000000101101000011111111111100001110111011100000000011110000
0000001011110001111000100000001000100001000111110000000011110010
0001000100001111000111110001001000000000111000100000111011110001
0000000111100001000100010001001101000010000011110010001000100010
0011001000100010000000100010001100001111001000011111001000010000
1111000111101111001100100000111101000011001101000100001100110100
0101010100100011001100010100010000011111111100110010001011110001
0000111100001111001011111111111101000101010100010100011101110111
0101010101000111010000110101001100000011111100000010000011110001
0000000000100010001011111111000100000000001100100010001000110100
0001001000010001111100100001001000101111001000010000001000011110
0000000100011111111111100010111100001111111111110000000011100001
0001000000010001000100000000000000100010111100010001001000000000
1111000000100001111011100000111100000000111100000010000100001110
0001111000011111000000001111111111111111000100001111001000100000
0000000000001111001011100010000011110010111111110010001011111111
1110111100100001111100101111001011110010111011110000000111110001
0010000100010000000011111111000000001111001000000011001100000011
0000001000010010001000100001000000010000111111111111000100010010
0001000000010001111000101111111100010010000011110010111100000001
0001001100000010001100100010000000100001001000110000111000000001
1111000000000000000100010000001000000001111000000000111111111110
0010001100110000010000110011010000000010010000111110000111110010
0001000100001110000100101111000111111111000000100001001000001111
0100010000100010011001010010010000110010001001000000000100100000
0001111100010001001011111111111011100000000000001101111011111101
1111000111100000001000110001001000100010001100111111000000000010
0000001000010001000111111111000100000001111000011110000011000000
1111000011011100000000100010111100010010000100010000000011110001
0010000100011111000100101111111111000000111100101100110111011111
1101110010111001000011111110101100100000001000010001000011111111
1111000000010000000000000001111111011111111111101001101111001011
1100110011001011111111111100101000001111001011110001111111001111
1111111100000000111011111111000011000000111000001101101110101010
1110110111001010000011101111111000000000110100000000111011001110
0000111011110001111011110001000111011111000011111111111111101100
1101110100010001111000011101111000001110000100001111111010111100
1110111000000010001000000000000100000000000100100011010011111110
1111000000100100111100000000000000110000001000100000111111010000
1111111000100001001111110000111100010011001100100011010100100011
0010010000110101000000011110111001000110001100010000000011100010
0000000000101110010000011111111000000011000100010111010100110000
0001010000110011000011110001000100110111010101101110000100010010
1110111111110001001100101111110100100011010001000011011001000010
0010010000100010001000001111111101110110011100111111111100000100
0000000100000000000100110001111000001111001100010101001101000011
0000010101100011001000011100111001100111011001010000000100010011
1111000111110001000100010000111100000011001000110011001101000010
0001001100110011000100011101111000100100001000011110110100000001
1111001000011110000100100000111100100000000100010100010001000010
0000001001100100000000111110111000010011001000001111000000000001
1111111111110000111000001110110001100010010000000011001001000100
1110000101000011001000000000000011101111000100100000000011011101
1111111100001110111111101011110101010011000111100101001100110100
0000000000100010001000000010000111101101111011100010111111011101
0000000111110000110111001100110101010101111111110011001101010011
1111000100010011001011110010001011101101000000000000111011011101
1101000000100000110111011110110001000010110111000011010001010110
0010000100010001111000010010000111001111111000010000111111101110
1111111011110001110111001100111000101110111111110100001000110010
0011010001000101111011110011001011111101110100000010000100001100
0000000111101111000011011110110100110000111011100011001101010100
0011010001010100110100010000010011101110110011100000001011111101
1111111100000010110111111110110111100000111111100101010100100010
0011001101100101111111100001001111011100111011000001000111111111
1111111011101110111111110000111000011110111011100011001100010000
0001001101010101110111110000111111111100111011110001111111110000
1110000100011111000011111110111011100000111011110000001011111111
0001000100100011111100000001000011101101111111110001000100001111
1110000100010000000011101111000011001101111111011100111011011101
0000111011001111111111100000111011100000111111110000111100000000
1111000000010000111011100001000011001010101111101100100110011001
1011110010011010000011111100110111100001111000000010000100000000
0010000000101110000111100010000011101111110111111101110010101100
1110111011001010111011100000111000000001111000001110000100011111
0001000100000010001011110000000100011110111000100010111100010000
1110000000010000111100101110000100000000111100010000000000010001
1110000000011111001011111111111111100000000011110000000100000001
1111001011111111111100100001111111100001000011100010000111110010
